node {
  name: "global_step/Initializer/zeros"
  op: "Const"
  attr {
    key: "_class"
    value {
      list {
        s: "loc:@global_step"
      }
    }
  }
  attr {
    key: "_output_shapes"
    value {
      list {
        shape {
        }
      }
    }
  }
  attr {
    key: "dtype"
    value {
      type: DT_INT64
    }
  }
  attr {
    key: "value"
    value {
      tensor {
        dtype: DT_INT64
        tensor_shape {
        }
        int64_val: 0
      }
    }
  }
}
node {
  name: "global_step"
  op: "VariableV2"
  attr {
    key: "_class"
    value {
      list {
        s: "loc:@global_step"
      }
    }
  }
  attr {
    key: "_output_shapes"
    value {
      list {
        shape {
        }
      }
    }
  }
  attr {
    key: "container"
    value {
      s: ""
    }
  }
  attr {
    key: "dtype"
    value {
      type: DT_INT64
    }
  }
  attr {
    key: "shape"
    value {
      shape {
      }
    }
  }
  attr {
    key: "shared_name"
    value {
      s: ""
    }
  }
}
node {
  name: "global_step/Assign"
  op: "Assign"
  input: "global_step"
  input: "global_step/Initializer/zeros"
  attr {
    key: "T"
    value {
      type: DT_INT64
    }
  }
  attr {
    key: "_class"
    value {
      list {
        s: "loc:@global_step"
      }
    }
  }
  attr {
    key: "_output_shapes"
    value {
      list {
        shape {
        }
      }
    }
  }
  attr {
    key: "use_locking"
    value {
      b: true
    }
  }
  attr {
    key: "validate_shape"
    value {
      b: true
    }
  }
}
node {
  name: "global_step/read"
  op: "Identity"
  input: "global_step"
  attr {
    key: "T"
    value {
      type: DT_INT64
    }
  }
  attr {
    key: "_class"
    value {
      list {
        s: "loc:@global_step"
      }
    }
  }
  attr {
    key: "_output_shapes"
    value {
      list {
        shape {
        }
      }
    }
  }
}
node {
  name: "global_step/IsVariableInitialized"
  op: "IsVariableInitialized"
  input: "global_step"
  attr {
    key: "_class"
    value {
      list {
        s: "loc:@global_step"
      }
    }
  }
  attr {
    key: "_output_shapes"
    value {
      list {
        shape {
        }
      }
    }
  }
  attr {
    key: "dtype"
    value {
      type: DT_INT64
    }
  }
}
node {
  name: "global_step/cond/Switch"
  op: "Switch"
  input: "global_step/IsVariableInitialized"
  input: "global_step/IsVariableInitialized"
  attr {
    key: "T"
    value {
      type: DT_BOOL
    }
  }
  attr {
    key: "_output_shapes"
    value {
      list {
        shape {
        }
        shape {
        }
      }
    }
  }
}
node {
  name: "global_step/cond/switch_t"
  op: "Identity"
  input: "global_step/cond/Switch:1"
  attr {
    key: "T"
    value {
      type: DT_BOOL
    }
  }
  attr {
    key: "_output_shapes"
    value {
      list {
        shape {
        }
      }
    }
  }
}
node {
  name: "global_step/cond/switch_f"
  op: "Identity"
  input: "global_step/cond/Switch"
  attr {
    key: "T"
    value {
      type: DT_BOOL
    }
  }
  attr {
    key: "_output_shapes"
    value {
      list {
        shape {
        }
      }
    }
  }
}
node {
  name: "global_step/cond/pred_id"
  op: "Identity"
  input: "global_step/IsVariableInitialized"
  attr {
    key: "T"
    value {
      type: DT_BOOL
    }
  }
  attr {
    key: "_output_shapes"
    value {
      list {
        shape {
        }
      }
    }
  }
}
node {
  name: "global_step/cond/read"
  op: "Identity"
  input: "global_step/cond/read/Switch:1"
  attr {
    key: "T"
    value {
      type: DT_INT64
    }
  }
  attr {
    key: "_output_shapes"
    value {
      list {
        shape {
        }
      }
    }
  }
}
node {
  name: "global_step/cond/read/Switch"
  op: "RefSwitch"
  input: "global_step"
  input: "global_step/cond/pred_id"
  attr {
    key: "T"
    value {
      type: DT_INT64
    }
  }
  attr {
    key: "_class"
    value {
      list {
        s: "loc:@global_step"
      }
    }
  }
  attr {
    key: "_output_shapes"
    value {
      list {
        shape {
        }
        shape {
        }
      }
    }
  }
}
node {
  name: "global_step/cond/Switch_1"
  op: "Switch"
  input: "global_step/Initializer/zeros"
  input: "global_step/cond/pred_id"
  attr {
    key: "T"
    value {
      type: DT_INT64
    }
  }
  attr {
    key: "_class"
    value {
      list {
        s: "loc:@global_step"
      }
    }
  }
  attr {
    key: "_output_shapes"
    value {
      list {
        shape {
        }
        shape {
        }
      }
    }
  }
}
node {
  name: "global_step/cond/Merge"
  op: "Merge"
  input: "global_step/cond/Switch_1"
  input: "global_step/cond/read"
  attr {
    key: "N"
    value {
      i: 2
    }
  }
  attr {
    key: "T"
    value {
      type: DT_INT64
    }
  }
  attr {
    key: "_output_shapes"
    value {
      list {
        shape {
        }
        shape {
        }
      }
    }
  }
}
node {
  name: "global_step/add/y"
  op: "Const"
  attr {
    key: "_output_shapes"
    value {
      list {
        shape {
        }
      }
    }
  }
  attr {
    key: "dtype"
    value {
      type: DT_INT64
    }
  }
  attr {
    key: "value"
    value {
      tensor {
        dtype: DT_INT64
        tensor_shape {
        }
        int64_val: 0
      }
    }
  }
}
node {
  name: "global_step/add"
  op: "Add"
  input: "global_step/cond/Merge"
  input: "global_step/add/y"
  attr {
    key: "T"
    value {
      type: DT_INT64
    }
  }
  attr {
    key: "_output_shapes"
    value {
      list {
        shape {
        }
      }
    }
  }
}
node {
  name: "tensors/component_0"
  op: "Const"
  device: "/device:CPU:0"
  attr {
    key: "_output_shapes"
    value {
      list {
        shape {
          dim {
            size: 1200
          }
        }
      }
    }
  }
  attr {
    key: "dtype"
    value {
      type: DT_INT64
    }
  }
  attr {
    key: "value"
    value {
      tensor {
        dtype: DT_INT64
        tensor_shape {
          dim {
            size: 1200
          }
        }
        tensor_content: "\002\000\000\000\000\000\000\000\002\000\000\000\000\000\000\000\002\000\000\000\000\000\000\000\003\000\000\000\000\000\000\000\003\000\000\000\000\000\000\000\002\000\000\000\000\000\000\000\002\000\000\000\000\000\000\000\002\000\000\000\000\000\000\000\002\000\000\000\000\000\000\000\001\000\000\000\000\000\000\000\001\000\000\000\000\000\000\000\003\000\000\000\000\000\000\000\001\000\000\000\000\000\000\000\003\000\000\000\000\000\000\000\001\000\000\000\000\000\000\000\002\000\000\000\000\000\000\000\002\000\000\000\000\000\000\000\002\000\000\000\000\000\000\000\002\000\000\000\000\000\000\000\001\000\000\000\000\000\000\000\003\000\000\000\000\000\000\000\001\000\000\000\000\000\000\000\002\000\000\000\000\000\000\000\002\000\000\000\000\000\000\000\001\000\000\000\000\000\000\000\003\000\000\000\000\000\000\000\002\000\000\000\000\000\000\000\003\000\000\000\000\000\000\000\001\000\000\000\000\000\000\000\001\000\000\000\000\000\000\000\001\000\000\000\000\000\000\000\001\000\000\000\000\000\000\000\002\000\000\000\000\000\000\000\002\000\000\000\000\000\000\000\002\000\000\000\000\000\000\000\003\000\000\000\000\000\000\000\002\000\000\000\000\000\000\000\002\000\000\000\000\000\000\000\001\000\000\000\000\000\000\000\000\000\000\000\000\000\000\000\002\000\000\000\000\000\000\000\001\000\000\000\000\000\000\000\002\000\000\000\000\000\000\000\001\000\000\000\000\000\000\000\001\000\000\000\000\000\000\000\002\000\000\000\000\000\000\000\002\000\000\000\000\000\000\000\003\000\000\000\000\000\000\000\000\000\000\000\000\000\000\000\001\000\000\000\000\000\000\000\002\000\000\000\000\000\000\000\002\000\000\000\000\000\000\000\002\000\000\000\000\000\000\000\003\000\000\000\000\000\000\000\002\000\000\000\000\000\000\000\002\000\000\000\000\000\000\000\002\000\000\000\000\000\000\000\002\000\000\000\000\000\000\000\003\000\000\000\000\000\000\000\001\000\000\000\000\000\000\000\002\000\000\000\000\000\000\000\001\000\000\000\000\000\000\000\002\000\000\000\000\000\000\000\002\000\000\000\000\000\000\000\002\000\000\000\000\000\000\000\003\000\000\000\000\000\000\000\002\000\000\000\000\000\000\000\002\000\000\000\000\000\000\000\001\000\000\000\000\000\000\000\002\000\000\000\000\000\000\000\002\000\000\000\000\000\000\000\002\000\000\000\000\000\000\000\002\000\000\000\000\000\000\000\002\000\000\000\000\000\000\000\001\000\000\000\000\000\000\000\001\000\000\000\000\000\000\000\001\000\000\000\000\000\000\000\001\000\000\000\000\000\000\000\000\000\000\000\000\000\000\000\002\000\000\000\000\000\000\000\001\000\000\000\000\000\000\000\002\000\000\000\000\000\000\000\003\000\000\000\000\000\000\000\002\000\000\000\000\000\000\000\002\000\000\000\000\000\000\000\002\000\000\000\000\000\000\000\002\000\000\000\000\000\000\000\002\000\000\000\000\000\000\000\000\000\000\000\000\000\000\000\000\000\000\000\000\000\000\000\002\000\000\000\000\000\000\000\002\000\000\000\000\000\000\000\002\000\000\000\000\000\000\000\002\000\000\000\000\000\000\000\002\000\000\000\000\000\000\000\002\000\000\000\000\000\000\000\002\000\000\000\000\000\000\000\001\000\000\000\000\000\000\000\001\000\000\000\000\000\000\000\000\000\000\000\000\000\000\000\002\000\000\000\000\000\000\000\002\000\000\000\000\000\000\000\002\000\000\000\000\000\000\000\003\000\000\000\000\000\000\000\001\000\000\000\000\000\000\000\002\000\000\000\000\000\000\000\001\000\000\000\000\000\000\000\001\000\000\000\000\000\000\000\000\000\000\000\000\000\000\000\002\000\000\000\000\000\000\000\001\000\000\000\000\000\000\000\002\000\000\000\000\000\000\000\003\000\000\000\000\000\000\000\002\000\000\000\000\000\000\000\001\000\000\000\000\000\000\000\002\000\000\000\000\000\000\000\001\000\000\000\000\000\000\000\002\000\000\000\000\000\000\000\003\000\000\000\000\000\000\000\002\000\000\000\000\000\000\000\002\000\000\000\000\000\000\000\001\000\000\000\000\000\000\000\001\000\000\000\000\000\000\000\002\000\000\000\000\000\000\000\002\000\000\000\000\000\000\000\000\000\000\000\000\000\000\000\002\000\000\000\000\000\000\000\000\000\000\000\000\000\000\000\002\000\000\000\000\000\000\000\002\000\000\000\000\000\000\000\002\000\000\000\000\000\000\000\002\000\000\000\000\000\000\000\002\000\000\000\000\000\000\000\002\000\000\000\000\000\000\000\002\000\000\000\000\000\000\000\002\000\000\000\000\000\000\000\001\000\000\000\000\000\000\000\003\000\000\000\000\000\000\000\003\000\000\000\000\000\000\000\002\000\000\000\000\000\000\000\000\000\000\000\000\000\000\000\002\000\000\000\000\000\000\000\002\000\000\000\000\000\000\000\002\000\000\000\000\000\000\000\002\000\000\000\000\000\000\000\002\000\000\000\000\000\000\000\001\000\000\000\000\000\000\000\002\000\000\000\000\000\000\000\000\000\000\000\000\000\000\000\001\000\000\000\000\000\000\000\002\000\000\000\000\000\000\000\003\000\000\000\000\000\000\000\002\000\000\000\000\000\000\000\002\000\000\000\000\000\000\000\001\000\000\000\000\000\000\000\000\000\000\000\000\000\000\000\002\000\000\000\000\000\000\000\003\000\000\000\000\000\000\000\002\000\000\000\000\000\000\000\002\000\000\000\000\000\000\000\002\000\000\000\000\000\000\000\003\000\000\000\000\000\000\000\002\000\000\000\000\000\000\000\000\000\000\000\000\000\000\000\001\000\000\000\000\000\000\000\000\000\000\000\000\000\000\000\001\000\000\000\000\000\000\000\003\000\000\000\000\000\000\000\002\000\000\000\000\000\000\000\002\000\000\000\000\000\000\000\002\000\000\000\000\000\000\000\002\000\000\000\000\000\000\000\002\000\000\000\000\000\000\000\002\000\000\000\000\000\000\000\002\000\000\000\000\000\000\000\002\000\000\000\000\000\000\000\002\000\000\000\000\000\000\000\002\000\000\000\000\000\000\000\003\000\000\000\000\000\000\000\002\000\000\000\000\000\000\000\002\000\000\000\000\000\000\000\001\000\000\000\000\000\000\000\001\000\000\000\000\000\000\000\002\000\000\000\000\000\000\000\002\000\000\000\000\000\000\000\003\000\000\000\000\000\000\000\002\000\000\000\000\000\000\000\001\000\000\000\000\000\000\000\002\000\000\000\000\000\000\000\002\000\000\000\000\000\000\000\002\000\000\000\000\000\000\000\002\000\000\000\000\000\000\000\002\000\000\000\000\000\000\000\002\000\000\000\000\000\000\000\001\000\000\000\000\000\000\000\002\000\000\000\000\000\000\000\003\000\000\000\000\000\000\000\002\000\000\000\000\000\000\000\000\000\000\000\000\000\000\000\003\000\000\000\000\000\000\000\002\000\000\000\000\000\000\000\002\000\000\000\000\000\000\000\001\000\000\000\000\000\000\000\002\000\000\000\000\000\000\000\001\000\000\000\000\000\000\000\002\000\000\000\000\000\000\000\001\000\000\000\000\000\000\000\001\000\000\000\000\000\000\000\002\000\000\000\000\000\000\000\002\000\000\000\000\000\000\000\000\000\000\000\000\000\000\000\002\000\000\000\000\000\000\000\002\000\000\000\000\000\000\000\002\000\000\000\000\000\000\000\001\000\000\000\000\000\000\000\001\000\000\000\000\000\000\000\002\000\000\000\000\000\000\000\001\000\000\000\000\000\000\000\002\000\000\000\000\000\000\000\002\000\000\000\000\000\000\000\002\000\000\000\000\000\000\000\002\000\000\000\000\000\000\000\002\000\000\000\000\000\000\000\002\000\000\000\000\000\000\000\003\000\000\000\000\000\000\000\001\000\000\000\000\000\000\000\003\000\000\000\000\000\000\000\001\000\000\000\000\000\000\000\001\000\000\000\000\000\000\000\002\000\000\000\000\000\000\000\001\000\000\000\000\000\000\000\003\000\000\000\000\000\000\000\001\000\000\000\000\000\000\000\001\000\000\000\000\000\000\000\002\000\000\000\000\000\000\000\001\000\000\000\000\000\000\000\002\000\000\000\000\000\000\000\002\000\000\000\000\000\000\000\003\000\000\000\000\000\000\000\001\000\000\000\000\000\000\000\002\000\000\000\000\000\000\000\000\000\000\000\000\000\000\000\001\000\000\000\000\000\000\000\001\000\000\000\000\000\000\000\002\000\000\000\000\000\000\000\002\000\000\000\000\000\000\000\001\000\000\000\000\000\000\000\002\000\000\000\000\000\000\000\002\000\000\000\000\000\000\000\002\000\000\000\000\000\000\000\000\000\000\000\000\000\000\000\002\000\000\000\000\000\000\000\002\000\000\000\000\000\000\000\001\000\000\000\000\000\000\000\001\000\000\000\000\000\000\000\002\000\000\000\000\000\000\000\002\000\000\000\000\000\000\000\002\000\000\000\000\000\000\000\002\000\000\000\000\000\000\000\001\000\000\000\000\000\000\000\002\000\000\000\000\000\000\000\003\000\000\000\000\000\000\000\002\000\000\000\000\000\000\000\002\000\000\000\000\000\000\000\002\000\000\000\000\000\000\000\002\000\000\000\000\000\000\000\002\000\000\000\000\000\000\000\001\000\000\000\000\000\000\000\001\000\000\000\000\000\000\000\001\000\000\000\000\000\000\000\003\000\000\000\000\000\000\000\002\000\000\000\000\000\000\000\003\000\000\000\000\000\000\000\001\000\000\000\000\000\000\000\001\000\000\000\000\000\000\000\002\000\000\000\000\000\000\000\002\000\000\000\000\000\000\000\002\000\000\000\000\000\000\000\003\000\000\000\000\000\000\000\002\000\000\000\000\000\000\000\002\000\000\000\000\000\000\000\002\000\000\000\000\000\000\000\002\000\000\000\000\000\000\000\003\000\000\000\000\000\000\000\002\000\000\000\000\000\000\000\002\000\000\000\000\000\000\000\002\000\000\000\000\000\000\000\000\000\000\000\000\000\000\000\001\000\000\000\000\000\000\000\001\000\000\000\000\000\000\000\002\000\000\000\000\000\000\000\000\000\000\000\000\000\000\000\001\000\000\000\000\000\000\000\002\000\000\000\000\000\000\000\002\000\000\000\000\000\000\000\002\000\000\000\000\000\000\000\001\000\000\000\000\000\000\000\002\000\000\000\000\000\000\000\002\000\000\000\000\000\000\000\001\000\000\000\000\000\000\000\001\000\000\000\000\000\000\000\002\000\000\000\000\000\000\000\003\000\000\000\000\000\000\000\002\000\000\000\000\000\000\000\003\000\000\000\000\000\000\000\003\000\000\000\000\000\000\000\003\000\000\000\000\000\000\000\000\000\000\000\000\000\000\000\002\000\000\000\000\000\000\000\003\000\000\000\000\000\000\000\002\000\000\000\000\000\000\000\001\000\000\000\000\000\000\000\002\000\000\000\000\000\000\000\002\000\000\000\000\000\000\000\002\000\000\000\000\000\000\000\002\000\000\000\000\000\000\000\002\000\000\000\000\000\000\000\003\000\000\000\000\000\000\000\003\000\000\000\000\000\000\000\002\000\000\000\000\000\000\000\003\000\000\000\000\000\000\000\003\000\000\000\000\000\000\000\002\000\000\000\000\000\000\000\001\000\000\000\000\000\000\000\002\000\000\000\000\000\000\000\002\000\000\000\000\000\000\000\002\000\000\000\000\000\000\000\001\000\000\000\000\000\000\000\002\000\000\000\000\000\000\000\001\000\000\000\000\000\000\000\001\000\000\000\000\000\000\000\001\000\000\000\000\000\000\000\003\000\000\000\000\000\000\000\002\000\000\000\000\000\000\000\002\000\000\000\000\000\000\000\002\000\000\000\000\000\000\000\003\000\000\000\000\000\000\000\002\000\000\000\000\000\000\000\002\000\000\000\000\000\000\000\001\000\000\000\000\000\000\000\002\000\000\000\000\000\000\000\001\000\000\000\000\000\000\000\002\000\000\000\000\000\000\000\002\000\000\000\000\000\000\000\001\000\000\000\000\000\000\000\001\000\000\000\000\000\000\000\001\000\000\000\000\000\000\000\002\000\000\000\000\000\000\000\002\000\000\000\000\000\000\000\003\000\000\000\000\000\000\000\002\000\000\000\000\000\000\000\002\000\000\000\000\000\000\000\001\000\000\000\000\000\000\000\002\000\000\000\000\000\000\000\001\000\000\000\000\000\000\000\002\000\000\000\000\000\000\000\002\000\000\000\000\000\000\000\002\000\000\000\000\000\000\000\001\000\000\000\000\000\000\000\002\000\000\000\000\000\000\000\002\000\000\000\000\000\000\000\001\000\000\000\000\000\000\000\002\000\000\000\000\000\000\000\001\000\000\000\000\000\000\000\002\000\000\000\000\000\000\000\001\000\000\000\000\000\000\000\002\000\000\000\000\000\000\000\001\000\000\000\000\000\000\000\001\000\000\000\000\000\000\000\002\000\000\000\000\000\000\000\002\000\000\000\000\000\000\000\002\000\000\000\000\000\000\000\001\000\000\000\000\000\000\000\001\000\000\000\000\000\000\000\002\000\000\000\000\000\000\000\000\000\000\000\000\000\000\000\002\000\000\000\000\000\000\000\002\000\000\000\000\000\000\000\003\000\000\000\000\000\000\000\002\000\000\000\000\000\000\000\001\000\000\000\000\000\000\000\002\000\000\000\000\000\000\000\002\000\000\000\000\000\000\000\002\000\000\000\000\000\000\000\002\000\000\000\000\000\000\000\002\000\000\000\000\000\000\000\000\000\000\000\000\000\000\000\001\000\000\000\000\000\000\000\002\000\000\000\000\000\000\000\003\000\000\000\000\000\000\000\001\000\000\000\000\000\000\000\002\000\000\000\000\000\000\000\001\000\000\000\000\000\000\000\000\000\000\000\000\000\000\000\001\000\000\000\000\000\000\000\001\000\000\000\000\000\000\000\002\000\000\000\000\000\000\000\001\000\000\000\000\000\000\000\001\000\000\000\000\000\000\000\002\000\000\000\000\000\000\000\002\000\000\000\000\000\000\000\002\000\000\000\000\000\000\000\001\000\000\000\000\000\000\000\002\000\000\000\000\000\000\000\002\000\000\000\000\000\000\000\002\000\000\000\000\000\000\000\001\000\000\000\000\000\000\000\001\000\000\000\000\000\000\000\003\000\000\000\000\000\000\000\003\000\000\000\000\000\000\000\001\000\000\000\000\000\000\000\002\000\000\000\000\000\000\000\002\000\000\000\000\000\000\000\002\000\000\000\000\000\000\000\003\000\000\000\000\000\000\000\002\000\000\000\000\000\000\000\002\000\000\000\000\000\000\000\003\000\000\000\000\000\000\000\001\000\000\000\000\000\000\000\001\000\000\000\000\000\000\000\004\000\000\000\000\000\000\000\002\000\000\000\000\000\000\000\002\000\000\000\000\000\000\000\003\000\000\000\000\000\000\000\001\000\000\000\000\000\000\000\001\000\000\000\000\000\000\000\002\000\000\000\000\000\000\000\001\000\000\000\000\000\000\000\002\000\000\000\000\000\000\000\002\000\000\000\000\000\000\000\001\000\000\000\000\000\000\000\000\000\000\000\000\000\000\000\002\000\000\000\000\000\000\000\002\000\000\000\000\000\000\000\000\000\000\000\000\000\000\000\002\000\000\000\000\000\000\000\002\000\000\000\000\000\000\000\001\000\000\000\000\000\000\000\001\000\000\000\000\000\000\000\002\000\000\000\000\000\000\000\003\000\000\000\000\000\000\000\000\000\000\000\000\000\000\000\002\000\000\000\000\000\000\000\003\000\000\000\000\000\000\000\002\000\000\000\000\000\000\000\002\000\000\000\000\000\000\000\002\000\000\000\000\000\000\000\002\000\000\000\000\000\000\000\001\000\000\000\000\000\000\000\001\000\000\000\000\000\000\000\001\000\000\000\000\000\000\000\002\000\000\000\000\000\000\000\002\000\000\000\000\000\000\000\002\000\000\000\000\000\000\000\002\000\000\000\000\000\000\000\002\000\000\000\000\000\000\000\003\000\000\000\000\000\000\000\002\000\000\000\000\000\000\000\001\000\000\000\000\000\000\000\001\000\000\000\000\000\000\000\002\000\000\000\000\000\000\000\002\000\000\000\000\000\000\000\001\000\000\000\000\000\000\000\001\000\000\000\000\000\000\000\000\000\000\000\000\000\000\000\002\000\000\000\000\000\000\000\002\000\000\000\000\000\000\000\001\000\000\000\000\000\000\000\003\000\000\000\000\000\000\000\002\000\000\000\000\000\000\000\002\000\000\000\000\000\000\000\002\000\000\000\000\000\000\000\002\000\000\000\000\000\000\000\003\000\000\000\000\000\000\000\002\000\000\000\000\000\000\000\002\000\000\000\000\000\000\000\002\000\000\000\000\000\000\000\003\000\000\000\000\000\000\000\003\000\000\000\000\000\000\000\002\000\000\000\000\000\000\000\003\000\000\000\000\000\000\000\003\000\000\000\000\000\000\000\001\000\000\000\000\000\000\000\002\000\000\000\000\000\000\000\001\000\000\000\000\000\000\000\001\000\000\000\000\000\000\000\002\000\000\000\000\000\000\000\002\000\000\000\000\000\000\000\002\000\000\000\000\000\000\000\001\000\000\000\000\000\000\000\001\000\000\000\000\000\000\000\001\000\000\000\000\000\000\000\002\000\000\000\000\000\000\000\001\000\000\000\000\000\000\000\001\000\000\000\000\000\000\000\000\000\000\000\000\000\000\000\002\000\000\000\000\000\000\000\001\000\000\000\000\000\000\000\001\000\000\000\000\000\000\000\001\000\000\000\000\000\000\000\001\000\000\000\000\000\000\000\002\000\000\000\000\000\000\000\002\000\000\000\000\000\000\000\002\000\000\000\000\000\000\000\002\000\000\000\000\000\000\000\002\000\000\000\000\000\000\000\002\000\000\000\000\000\000\000\002\000\000\000\000\000\000\000\002\000\000\000\000\000\000\000\001\000\000\000\000\000\000\000\001\000\000\000\000\000\000\000\002\000\000\000\000\000\000\000\002\000\000\000\000\000\000\000\002\000\000\000\000\000\000\000\001\000\000\000\000\000\000\000\003\000\000\000\000\000\000\000\002\000\000\000\000\000\000\000\003\000\000\000\000\000\000\000\002\000\000\000\000\000\000\000\001\000\000\000\000\000\000\000\000\000\000\000\000\000\000\000\001\000\000\000\000\000\000\000\002\000\000\000\000\000\000\000\003\000\000\000\000\000\000\000\003\000\000\000\000\000\000\000\002\000\000\000\000\000\000\000\001\000\000\000\000\000\000\000\003\000\000\000\000\000\000\000\000\000\000\000\000\000\000\000\002\000\000\000\000\000\000\000\002\000\000\000\000\000\000\000\002\000\000\000\000\000\000\000\001\000\000\000\000\000\000\000\000\000\000\000\000\000\000\000\002\000\000\000\000\000\000\000\000\000\000\000\000\000\000\000\002\000\000\000\000\000\000\000\002\000\000\000\000\000\000\000\001\000\000\000\000\000\000\000\002\000\000\000\000\000\000\000\003\000\000\000\000\000\000\000\003\000\000\000\000\000\000\000\002\000\000\000\000\000\000\000\001\000\000\000\000\000\000\000\002\000\000\000\000\000\000\000\003\000\000\000\000\000\000\000\002\000\000\000\000\000\000\000\002\000\000\000\000\000\000\000\002\000\000\000\000\000\000\000\002\000\000\000\000\000\000\000\002\000\000\000\000\000\000\000\001\000\000\000\000\000\000\000\003\000\000\000\000\000\000\000\002\000\000\000\000\000\000\000\003\000\000\000\000\000\000\000\001\000\000\000\000\000\000\000\001\000\000\000\000\000\000\000\001\000\000\000\000\000\000\000\002\000\000\000\000\000\000\000\002\000\000\000\000\000\000\000\002\000\000\000\000\000\000\000\002\000\000\000\000\000\000\000\000\000\000\000\000\000\000\000\002\000\000\000\000\000\000\000\002\000\000\000\000\000\000\000\001\000\000\000\000\000\000\000\003\000\000\000\000\000\000\000\002\000\000\000\000\000\000\000\002\000\000\000\000\000\000\000\002\000\000\000\000\000\000\000\002\000\000\000\000\000\000\000\001\000\000\000\000\000\000\000\002\000\000\000\000\000\000\000\002\000\000\000\000\000\000\000\001\000\000\000\000\000\000\000\001\000\000\000\000\000\000\000\001\000\000\000\000\000\000\000\002\000\000\000\000\000\000\000\002\000\000\000\000\000\000\000\001\000\000\000\000\000\000\000\002\000\000\000\000\000\000\000\003\000\000\000\000\000\000\000\000\000\000\000\000\000\000\000\002\000\000\000\000\000\000\000\001\000\000\000\000\000\000\000\003\000\000\000\000\000\000\000\001\000\000\000\000\000\000\000\002\000\000\000\000\000\000\000\001\000\000\000\000\000\000\000\001\000\000\000\000\000\000\000\002\000\000\000\000\000\000\000\003\000\000\000\000\000\000\000\002\000\000\000\000\000\000\000\002\000\000\000\000\000\000\000\001\000\000\000\000\000\000\000\003\000\000\000\000\000\000\000\001\000\000\000\000\000\000\000\003\000\000\000\000\000\000\000\002\000\000\000\000\000\000\000\002\000\000\000\000\000\000\000\002\000\000\000\000\000\000\000\001\000\000\000\000\000\000\000\002\000\000\000\000\000\000\000\002\000\000\000\000\000\000\000\002\000\000\000\000\000\000\000\002\000\000\000\000\000\000\000\002\000\000\000\000\000\000\000\001\000\000\000\000\000\000\000\002\000\000\000\000\000\000\000\001\000\000\000\000\000\000\000\003\000\000\000\000\000\000\000\002\000\000\000\000\000\000\000\002\000\000\000\000\000\000\000\000\000\000\000\000\000\000\000\000\000\000\000\000\000\000\000\002\000\000\000\000\000\000\000\002\000\000\000\000\000\000\000\002\000\000\000\000\000\000\000\003\000\000\000\000\000\000\000\003\000\000\000\000\000\000\000\000\000\000\000\000\000\000\000\002\000\000\000\000\000\000\000\002\000\000\000\000\000\000\000\002\000\000\000\000\000\000\000\002\000\000\000\000\000\000\000\002\000\000\000\000\000\000\000\001\000\000\000\000\000\000\000\001\000\000\000\000\000\000\000\002\000\000\000\000\000\000\000\002\000\000\000\000\000\000\000\001\000\000\000\000\000\000\000\002\000\000\000\000\000\000\000\002\000\000\000\000\000\000\000\001\000\000\000\000\000\000\000\002\000\000\000\000\000\000\000\000\000\000\000\000\000\000\000\000\000\000\000\000\000\000\000\001\000\000\000\000\000\000\000\000\000\000\000\000\000\000\000\003\000\000\000\000\000\000\000\002\000\000\000\000\000\000\000\002\000\000\000\000\000\000\000\002\000\000\000\000\000\000\000\002\000\000\000\000\000\000\000\003\000\000\000\000\000\000\000\002\000\000\000\000\000\000\000\002\000\000\000\000\000\000\000\002\000\000\000\000\000\000\000\002\000\000\000\000\000\000\000\000\000\000\000\000\000\000\000\002\000\000\000\000\000\000\000\001\000\000\000\000\000\000\000\002\000\000\000\000\000\000\000\001\000\000\000\000\000\000\000\003\000\000\000\000\000\000\000\001\000\000\000\000\000\000\000\001\000\000\000\000\000\000\000\001\000\000\000\000\000\000\000\001\000\000\000\000\000\000\000\002\000\000\000\000\000\000\000\002\000\000\000\000\000\000\000\003\000\000\000\000\000\000\000\002\000\000\000\000\000\000\000\002\000\000\000\000\000\000\000\003\000\000\000\000\000\000\000\002\000\000\000\000\000\000\000\002\000\000\000\000\000\000\000\002\000\000\000\000\000\000\000\002\000\000\000\000\000\000\000\001\000\000\000\000\000\000\000\002\000\000\000\000\000\000\000\001\000\000\000\000\000\000\000\002\000\000\000\000\000\000\000\002\000\000\000\000\000\000\000\001\000\000\000\000\000\000\000\002\000\000\000\000\000\000\000\003\000\000\000\000\000\000\000\001\000\000\000\000\000\000\000\003\000\000\000\000\000\000\000\002\000\000\000\000\000\000\000\001\000\000\000\000\000\000\000\001\000\000\000\000\000\000\000\002\000\000\000\000\000\000\000\003\000\000\000\000\000\000\000\002\000\000\000\000\000\000\000\002\000\000\000\000\000\000\000\002\000\000\000\000\000\000\000\002\000\000\000\000\000\000\000\002\000\000\000\000\000\000\000\002\000\000\000\000\000\000\000\002\000\000\000\000\000\000\000\003\000\000\000\000\000\000\000\002\000\000\000\000\000\000\000\001\000\000\000\000\000\000\000\002\000\000\000\000\000\000\000\002\000\000\000\000\000\000\000\001\000\000\000\000\000\000\000\001\000\000\000\000\000\000\000\001\000\000\000\000\000\000\000\002\000\000\000\000\000\000\000\003\000\000\000\000\000\000\000\002\000\000\000\000\000\000\000\003\000\000\000\000\000\000\000\002\000\000\000\000\000\000\000\002\000\000\000\000\000\000\000\000\000\000\000\000\000\000\000\002\000\000\000\000\000\000\000\002\000\000\000\000\000\000\000\002\000\000\000\000\000\000\000\001\000\000\000\000\000\000\000\000\000\000\000\000\000\000\000\001\000\000\000\000\000\000\000\002\000\000\000\000\000\000\000\002\000\000\000\000\000\000\000\002\000\000\000\000\000\000\000\002\000\000\000\000\000\000\000\002\000\000\000\000\000\000\000\002\000\000\000\000\000\000\000\003\000\000\000\000\000\000\000\001\000\000\000\000\000\000\000\002\000\000\000\000\000\000\000\002\000\000\000\000\000\000\000\002\000\000\000\000\000\000\000\001\000\000\000\000\000\000\000\003\000\000\000\000\000\000\000\002\000\000\000\000\000\000\000\002\000\000\000\000\000\000\000\002\000\000\000\000\000\000\000\003\000\000\000\000\000\000\000\002\000\000\000\000\000\000\000\002\000\000\000\000\000\000\000\002\000\000\000\000\000\000\000\002\000\000\000\000\000\000\000\001\000\000\000\000\000\000\000\001\000\000\000\000\000\000\000\002\000\000\000\000\000\000\000\002\000\000\000\000\000\000\000\003\000\000\000\000\000\000\000\000\000\000\000\000\000\000\000\002\000\000\000\000\000\000\000\002\000\000\000\000\000\000\000\001\000\000\000\000\000\000\000\002\000\000\000\000\000\000\000\002\000\000\000\000\000\000\000\002\000\000\000\000\000\000\000\002\000\000\000\000\000\000\000\002\000\000\000\000\000\000\000\004\000\000\000\000\000\000\000\002\000\000\000\000\000\000\000\001\000\000\000\000\000\000\000\000\000\000\000\000\000\000\000\002\000\000\000\000\000\000\000\002\000\000\000\000\000\000\000\003\000\000\000\000\000\000\000\002\000\000\000\000\000\000\000\002\000\000\000\000\000\000\000\002\000\000\000\000\000\000\000\002\000\000\000\000\000\000\000\002\000\000\000\000\000\000\000\003\000\000\000\000\000\000\000\001\000\000\000\000\000\000\000\002\000\000\000\000\000\000\000\002\000\000\000\000\000\000\000\003\000\000\000\000\000\000\000\002\000\000\000\000\000\000\000\002\000\000\000\000\000\000\000\002\000\000\000\000\000\000\000\001\000\000\000\000\000\000\000\002\000\000\000\000\000\000\000\003\000\000\000\000\000\000\000\002\000\000\000\000\000\000\000\002\000\000\000\000\000\000\000\002\000\000\000\000\000\000\000\001\000\000\000\000\000\000\000\003\000\000\000\000\000\000\000\002\000\000\000\000\000\000\000\003\000\000\000\000\000\000\000\002\000\000\000\000\000\000\000\002\000\000\000\000\000\000\000\002\000\000\000\000\000\000\000\002\000\000\000\000\000\000\000\002\000\000\000\000\000\000\000\002\000\000\000\000\000\000\000\002\000\000\000\000\000\000\000\000\000\000\000\000\000\000\000\002\000\000\000\000\000\000\000\001\000\000\000\000\000\000\000\002\000\000\000\000\000\000\000\001\000\000\000\000\000\000\000\002\000\000\000\000\000\000\000\002\000\000\000\000\000\000\000\002\000\000\000\000\000\000\000\002\000\000\000\000\000\000\000\002\000\000\000\000\000\000\000\002\000\000\000\000\000\000\000\002\000\000\000\000\000\000\000\002\000\000\000\000\000\000\000\001\000\000\000\000\000\000\000\003\000\000\000\000\000\000\000\001\000\000\000\000\000\000\000\002\000\000\000\000\000\000\000\002\000\000\000\000\000\000\000\002\000\000\000\000\000\000\000\003\000\000\000\000\000\000\000\001\000\000\000\000\000\000\000\002\000\000\000\000\000\000\000\001\000\000\000\000\000\000\000\002\000\000\000\000\000\000\000\002\000\000\000\000\000\000\000\002\000\000\000\000\000\000\000\002\000\000\000\000\000\000\000\002\000\000\000\000\000\000\000\002\000\000\000\000\000\000\000\001\000\000\000\000\000\000\000\001\000\000\000\000\000\000\000\002\000\000\000\000\000\000\000\001\000\000\000\000\000\000\000\003\000\000\000\000\000\000\000\002\000\000\000\000\000\000\000\002\000\000\000\000\000\000\000\002\000\000\000\000\000\000\000\002\000\000\000\000\000\000\000\002\000\000\000\000\000\000\000\001\000\000\000\000\000\000\000\002\000\000\000\000\000\000\000\003\000\000\000\000\000\000\000\000\000\000\000\000\000\000\000\002\000\000\000\000\000\000\000\002\000\000\000\000\000\000\000\002\000\000\000\000\000\000\000\002\000\000\000\000\000\000\000\002\000\000\000\000\000\000\000\002\000\000\000\000\000\000\000\002\000\000\000\000\000\000\000\002\000\000\000\000\000\000\000\002\000\000\000\000\000\000\000\002\000\000\000\000\000\000\000\001\000\000\000\000\000\000\000\001\000\000\000\000\000\000\000\001\000\000\000\000\000\000\000\001\000\000\000\000\000\000\000\002\000\000\000\000\000\000\000\002\000\000\000\000\000\000\000\000\000\000\000\000\000\000\000\003\000\000\000\000\000\000\000\002\000\000\000\000\000\000\000\002\000\000\000\000\000\000\000\001\000\000\000\000\000\000\000\002\000\000\000\000\000\000\000\002\000\000\000\000\000\000\000\002\000\000\000\000\000\000\000\002\000\000\000\000\000\000\000\001\000\000\000\000\000\000\000\002\000\000\000\000\000\000\000\002\000\000\000\000\000\000\000\001\000\000\000\000\000\000\000\002\000\000\000\000\000\000\000\002\000\000\000\000\000\000\000\002\000\000\000\000\000\000\000\002\000\000\000\000\000\000\000\001\000\000\000\000\000\000\000\002\000\000\000\000\000\000\000\002\000\000\000\000\000\000\000\001\000\000\000\000\000\000\000\002\000\000\000\000\000\000\000\002\000\000\000\000\000\000\000\003\000\000\000\000\000\000\000\002\000\000\000\000\000\000\000\002\000\000\000\000\000\000\000\002\000\000\000\000\000\000\000\001\000\000\000\000\000\000\000\002\000\000\000\000\000\000\000\002\000\000\000\000\000\000\000\001\000\000\000\000\000\000\000\001\000\000\000\000\000\000\000\002\000\000\000\000\000\000\000\002\000\000\000\000\000\000\000\003\000\000\000\000\000\000\000\002\000\000\000\000\000\000\000\001\000\000\000\000\000\000\000\002\000\000\000\000\000\000\000\002\000\000\000\000\000\000\000\002\000\000\000\000\000\000\000\001\000\000\000\000\000\000\000\001\000\000\000\000\000\000\000\002\000\000\000\000\000\000\000\002\000\000\000\000\000\000\000\001\000\000\000\000\000\000\000\002\000\000\000\000\000\000\000\002\000\000\000\000\000\000\000\002\000\000\000\000\000\000\000\002\000\000\000\000\000\000\000\001\000\000\000\000\000\000\000\001\000\000\000\000\000\000\000\002\000\000\000\000\000\000\000\002\000\000\000\000\000\000\000\001\000\000\000\000\000\000\000\002\000\000\000\000\000\000\000\003\000\000\000\000\000\000\000\001\000\000\000\000\000\000\000\001\000\000\000\000\000\000\000\001\000\000\000\000\000\000\000\002\000\000\000\000\000\000\000\003\000\000\000\000\000\000\000\001\000\000\000\000\000\000\000\001\000\000\000\000\000\000\000\003\000\000\000\000\000\000\000\001\000\000\000\000\000\000\000\002\000\000\000\000\000\000\000\002\000\000\000\000\000\000\000\002\000\000\000\000\000\000\000\001\000\000\000\000\000\000\000\001\000\000\000\000\000\000\000\003\000\000\000\000\000\000\000\002\000\000\000\000\000\000\000\001\000\000\000\000\000\000\000\001\000\000\000\000\000\000\000\001\000\000\000\000\000\000\000\003\000\000\000\000\000\000\000\002\000\000\000\000\000\000\000\002\000\000\000\000\000\000\000\000\000\000\000\000\000\000\000\002\000\000\000\000\000\000\000\002\000\000\000\000\000\000\000\002\000\000\000\000\000\000\000\002\000\000\000\000\000\000\000\003\000\000\000\000\000\000\000\002\000\000\000\000\000\000\000\002\000\000\000\000\000\000\000\002\000\000\000\000\000\000\000\003\000\000\000\000\000\000\000\001\000\000\000\000\000\000\000\003\000\000\000\000\000\000\000\002\000\000\000\000\000\000\000\002\000\000\000\000\000\000\000\002\000\000\000\000\000\000\000\002\000\000\000\000\000\000\000\002\000\000\000\000\000\000\000\003\000\000\000\000\000\000\000\001\000\000\000\000\000\000\000\002\000\000\000\000\000\000\000\002\000\000\000\000\000\000\000\000\000\000\000\000\000\000\000\002\000\000\000\000\000\000\000\002\000\000\000\000\000\000\000\002\000\000\000\000\000\000\000\001\000\000\000\000\000\000\000\003\000\000\000\000\000\000\000\002\000\000\000\000\000\000\000\002\000\000\000\000\000\000\000\002\000\000\000\000\000\000\000\001\000\000\000\000\000\000\000\001\000\000\000\000\000\000\000\002\000\000\000\000\000\000\000\000\000\000\000\000\000\000\000\002\000\000\000\000\000\000\000\002\000\000\000\000\000\000\000\002\000\000\000\000\000\000\000\002\000\000\000\000\000\000\000\002\000\000\000\000\000\000\000\000\000\000\000\000\000\000\000\002\000\000\000\000\000\000\000\002\000\000\000\000\000\000\000\002\000\000\000\000\000\000\000\002\000\000\000\000\000\000\000\002\000\000\000\000\000\000\000\001\000\000\000\000\000\000\000\001\000\000\000\000\000\000\000\000\000\000\000\000\000\000\000\001\000\000\000\000\000\000\000\000\000\000\000\000\000\000\000\002\000\000\000\000\000\000\000\001\000\000\000\000\000\000\000\002\000\000\000\000\000\000\000\002\000\000\000\000\000\000\000\002\000\000\000\000\000\000\000\000\000\000\000\000\000\000\000\002\000\000\000\000\000\000\000\002\000\000\000\000\000\000\000\002\000\000\000\000\000\000\000\002\000\000\000\000\000\000\000\003\000\000\000\000\000\000\000\002\000\000\000\000\000\000\000\002\000\000\000\000\000\000\000\002\000\000\000\000\000\000\000\001\000\000\000\000\000\000\000\001\000\000\000\000\000\000\000\003\000\000\000\000\000\000\000\002\000\000\000\000\000\000\000\002\000\000\000\000\000\000\000\003\000\000\000\000\000\000\000\002\000\000\000\000\000\000\000\002\000\000\000\000\000\000\000\002\000\000\000\000\000\000\000\003\000\000\000\000\000\000\000\001\000\000\000\000\000\000\000\001\000\000\000\000\000\000\000\002\000\000\000\000\000\000\000\001\000\000\000\000\000\000\000\002\000\000\000\000\000\000\000\002\000\000\000\000\000\000\000\001\000\000\000\000\000\000\000\003\000\000\000\000\000\000\000\002\000\000\000\000\000\000\000\002\000\000\000\000\000\000\000\001\000\000\000\000\000\000\000\002\000\000\000\000\000\000\000\001\000\000\000\000\000\000\000\002\000\000\000\000\000\000\000\000\000\000\000\000\000\000\000\001\000\000\000\000\000\000\000\000\000\000\000\000\000\000\000\001\000\000\000\000\000\000\000\001\000\000\000\000\000\000\000\001\000\000\000\000\000\000\000\002\000\000\000\000\000\000\000\002\000\000\000\000\000\000\000\002\000\000\000\000\000\000\000\002\000\000\000\000\000\000\000\002\000\000\000\000\000\000\000\002\000\000\000\000\000\000\000\002\000\000\000\000\000\000\000\001\000\000\000\000\000\000\000\002\000\000\000\000\000\000\000\002\000\000\000\000\000\000\000\002\000\000\000\000\000\000\000\002\000\000\000\000\000\000\000\003\000\000\000\000\000\000\000\001\000\000\000\000\000\000\000\001\000\000\000\000\000\000\000\000\000\000\000\000\000\000\000\002\000\000\000\000\000\000\000\003\000\000\000\000\000\000\000\003\000\000\000\000\000\000\000\001\000\000\000\000\000\000\000\001\000\000\000\000\000\000\000\003\000\000\000\000\000\000\000\002\000\000\000\000\000\000\000\000\000\000\000\000\000\000\000\001\000\000\000\000\000\000\000\002\000\000\000\000\000\000\000\002\000\000\000\000\000\000\000\002\000\000\000\000\000\000\000\002\000\000\000\000\000\000\000\002\000\000\000\000\000\000\000\002\000\000\000\000\000\000\000\003\000\000\000\000\000\000\000\002\000\000\000\000\000\000\000\002\000\000\000\000\000\000\000\001\000\000\000\000\000\000\000\002\000\000\000\000\000\000\000\002\000\000\000\000\000\000\000\002\000\000\000\000\000\000\000\001\000\000\000\000\000\000\000\002\000\000\000\000\000\000\000\002\000\000\000\000\000\000\000\002\000\000\000\000\000\000\000\002\000\000\000\000\000\000\000\003\000\000\000\000\000\000\000\002\000\000\000\000\000\000\000\002\000\000\000\000\000\000\000\003\000\000\000\000\000\000\000\002\000\000\000\000\000\000\000\002\000\000\000\000\000\000\000\002\000\000\000\000\000\000\000\002\000\000\000\000\000\000\000\002\000\000\000\000\000\000\000\002\000\000\000\000\000\000\000\002\000\000\000\000\000\000\000\002\000\000\000\000\000\000\000\001\000\000\000\000\000\000\000\002\000\000\000\000\000\000\000\001\000\000\000\000\000\000\000\002\000\000\000\000\000\000\000\003\000\000\000\000\000\000\000\001\000\000\000\000\000\000\000\002\000\000\000\000\000\000\000\001\000\000\000\000\000\000\000\002\000\000\000\000\000\000\000\001\000\000\000\000\000\000\000\002\000\000\000\000\000\000\000\001\000\000\000\000\000\000\000\002\000\000\000\000\000\000\000\001\000\000\000\000\000\000\000\002\000\000\000\000\000\000\000\002\000\000\000\000\000\000\000\001\000\000\000\000\000\000\000\003\000\000\000\000\000\000\000\002\000\000\000\000\000\000\000\002\000\000\000\000\000\000\000\002\000\000\000\000\000\000\000\002\000\000\000\000\000\000\000\002\000\000\000\000\000\000\000\002\000\000\000\000\000\000\000\001\000\000\000\000\000\000\000\002\000\000\000\000\000\000\000\000\000\000\000\000\000\000\000\002\000\000\000\000\000\000\000\001\000\000\000\000\000\000\000\002\000\000\000\000\000\000\000\001\000\000\000\000\000\000\000\001\000\000\000\000\000\000\000\001\000\000\000\000\000\000\000\002\000\000\000\000\000\000\000\002\000\000\000\000\000\000\000\002\000\000\000\000\000\000\000\002\000\000\000\000\000\000\000\002\000\000\000\000\000\000\000\002\000\000\000\000\000\000\000\003\000\000\000\000\000\000\000\002\000\000\000\000\000\000\000\002\000\000\000\000\000\000\000\001\000\000\000\000\000\000\000\001\000\000\000\000\000\000\000\001\000\000\000\000\000\000\000\003\000\000\000\000\000\000\000\002\000\000\000\000\000\000\000\002\000\000\000\000\000\000\000\001\000\000\000\000\000\000\000\001\000\000\000\000\000\000\000\001\000\000\000\000\000\000\000\003\000\000\000\000\000\000\000\001\000\000\000\000\000\000\000\000\000\000\000\000\000\000\000\002\000\000\000\000\000\000\000\002\000\000\000\000\000\000\000\003\000\000\000\000\000\000\000\003\000\000\000\000\000\000\000\002\000\000\000\000\000\000\000\002\000\000\000\000\000\000\000\002\000\000\000\000\000\000\000\000\000\000\000\000\000\000\000\001\000\000\000\000\000\000\000\002\000\000\000\000\000\000\000\002\000\000\000\000\000\000\000\001\000\000\000\000\000\000\000\001\000\000\000\000\000\000\000\000\000\000\000\000\000\000\000\002\000\000\000\000\000\000\000\002\000\000\000\000\000\000\000\002\000\000\000\000\000\000\000\002\000\000\000\000\000\000\000\003\000\000\000\000\000\000\000\000\000\000\000\000\000\000\000\001\000\000\000\000\000\000\000\001\000\000\000\000\000\000\000\002\000\000\000\000\000\000\000\001\000\000\000\000\000\000\000\001\000\000\000\000\000\000\000\002\000\000\000\000\000\000\000\001\000\000\000\000\000\000\000\002\000\000\000\000\000\000\000\002\000\000\000\000\000\000\000\001\000\000\000\000\000\000\000\002\000\000\000\000\000\000\000\002\000\000\000\000\000\000\000\002\000\000\000\000\000\000\000\002\000\000\000\000\000\000\000\003\000\000\000\000\000\000\000\002\000\000\000\000\000\000\000\002\000\000\000\000\000\000\000\002\000\000\000\000\000\000\000\002\000\000\000\000\000\000\000\002\000\000\000\000\000\000\000\002\000\000\000\000\000\000\000\002\000\000\000\000\000\000\000\003\000\000\000\000\000\000\000\002\000\000\000\000\000\000\000\002\000\000\000\000\000\000\000\003\000\000\000\000\000\000\000\001\000\000\000\000\000\000\000\002\000\000\000\000\000\000\000\002\000\000\000\000\000\000\000\000\000\000\000\000\000\000\000\002\000\000\000\000\000\000\000\002\000\000\000\000\000\000\000\001\000\000\000\000\000\000\000\001\000\000\000\000\000\000\000\001\000\000\000\000\000\000\000\000\000\000\000\000\000\000\000\002\000\000\000\000\000\000\000\002\000\000\000\000\000\000\000\003\000\000\000\000\000\000\000\002\000\000\000\000\000\000\000\003\000\000\000\000\000\000\000\001\000\000\000\000\000\000\000\002\000\000\000\000\000\000\000\003\000\000\000\000\000\000\000\002\000\000\000\000\000\000\000\002\000\000\000\000\000\000\000\004\000\000\000\000\000\000\000\002\000\000\000\000\000\000\000\001\000\000\000\000\000\000\000\002\000\000\000\000\000\000\000\001\000\000\000\000\000\000\000\002\000\000\000\000\000\000\000\003\000\000\000\000\000\000\000\001\000\000\000\000\000\000\000\002\000\000\000\000\000\000\000\002\000\000\000\000\000\000\000"
      }
    }
  }
}
node {
  name: "tensors/component_1"
  op: "Const"
  device: "/device:CPU:0"
  attr {
    key: "_output_shapes"
    value {
      list {
        shape {
          dim {
            size: 1200
          }
        }
      }
    }
  }
  attr {
    key: "dtype"
    value {
      type: DT_INT64
    }
  }
  attr {
    key: "value"
    value {
      tensor {
        dtype: DT_INT64
        tensor_shape {
          dim {
            size: 1200
          }
        }
        tensor_content: "\256\006\000\000\000\000\000\000\356\004\000\000\000\000\000\000\372\006\000\000\000\000\000\000\265\006\000\000\000\000\000\000\226\010\000\000\000\000\000\000R\005\000\000\000\000\000\000\236\006\000\000\000\000\000\000*\010\000\000\000\000\000\000\356\006\000\000\000\000\000\0005\004\000\000\000\000\000\000\020\004\000\000\000\000\000\000\024\t\000\000\000\000\000\000\220\003\000\000\000\000\000\000\326\005\000\000\000\000\000\000\345\004\000\000\000\000\000\000V\003\000\000\000\000\000\000\354\003\000\000\000\000\000\000\020\005\000\000\000\000\000\000Z\004\000\000\000\000\000\000;\005\000\000\000\000\000\000H\t\000\000\000\000\000\000T\004\000\000\000\000\000\000\003\007\000\000\000\000\000\000$\004\000\000\000\000\000\000$\004\000\000\000\000\000\000@\006\000\000\000\000\000\000\204\003\000\000\000\000\000\000\250\006\000\000\000\000\000\000@\006\000\000\000\000\000\000\010\002\000\000\000\000\000\000%\005\000\000\000\000\000\000\314\004\000\000\000\000\000\000\322\004\000\000\000\000\000\000\244\006\000\000\000\000\000\000\031\006\000\000\000\000\000\000\224\t\000\000\000\000\000\000I\004\000\000\000\000\000\000\021\005\000\000\000\000\000\000!\004\000\000\000\000\000\000\200\004\000\000\000\000\000\000,\005\000\000\000\000\000\0000\005\000\000\000\000\000\000t\003\000\000\000\000\000\000\252\003\000\000\000\000\000\000~\004\000\000\000\000\000\000\330\006\000\000\000\000\000\000e\010\000\000\000\000\000\000x\006\000\000\000\000\000\000\254\005\000\000\000\000\000\000\273\003\000\000\000\000\000\000\276\005\000\000\000\000\000\000\230\004\000\000\000\000\000\0000\003\000\000\000\000\000\0002\007\000\000\000\000\000\000P\005\000\000\000\000\000\000\221\005\000\000\000\000\000\000\313\006\000\000\000\000\000\000\270\006\000\000\000\000\000\000\201\013\000\000\000\000\000\000\014\003\000\000\000\000\000\000\206\004\000\000\000\000\000\000W\004\000\000\000\000\000\000Z\005\000\000\000\000\000\000\256\006\000\000\000\000\000\000\362\007\000\000\000\000\000\000\251\t\000\000\000\000\000\000\237\010\000\000\000\000\000\000\307\005\000\000\000\000\000\000\353\002\000\000\000\000\000\000\357\010\000\000\000\000\000\000\257\010\000\000\000\000\000\000M\003\000\000\000\000\000\000\266\006\000\000\000\000\000\000>\004\000\000\000\000\000\000E\006\000\000\000\000\000\000\334\003\000\000\000\000\000\000\270\003\000\000\000\000\000\000\005\005\000\000\000\000\000\000\350\006\000\000\000\000\000\000\316\004\000\000\000\000\000\000^\010\000\000\000\000\000\0009\005\000\000\000\000\000\000\033\006\000\000\000\000\000\000)\004\000\000\000\000\000\000\302\005\000\000\000\000\000\000q\t\000\000\000\000\000\000\030\006\000\000\000\000\000\000\310\004\000\000\000\000\000\000\366\005\000\000\000\000\000\000\336\003\000\000\000\000\000\000\020\004\000\000\000\000\000\000\323\004\000\000\000\000\000\000\304\003\000\000\000\000\000\000\363\010\000\000\000\000\000\000\372\006\000\000\000\000\000\000\276\005\000\000\000\000\000\0004\006\000\000\000\000\000\000\300\003\000\000\000\000\000\000C\003\000\000\000\000\000\000\311\004\000\000\000\000\000\000J\006\000\000\000\000\000\000\304\006\000\000\000\000\000\000\377\005\000\000\000\000\000\000\312\004\000\000\000\000\000\000\032\007\000\000\000\000\000\000\310\007\000\000\000\000\000\000\027\004\000\000\000\000\000\000\025\003\000\000\000\000\000\000\355\005\000\000\000\000\000\0004\007\000\000\000\000\000\000?\007\000\000\000\000\000\000\226\005\000\000\000\000\000\000\210\n\000\000\000\000\000\000\323\010\000\000\000\000\000\000\020\t\000\000\000\000\000\000\262\005\000\000\000\000\000\000D\004\000\000\000\000\000\000e\004\000\000\000\000\000\000\226\014\000\000\000\000\000\000\260\005\000\000\000\000\000\000\334\003\000\000\000\000\000\000c\004\000\000\000\000\000\0008\004\000\000\000\000\000\000\257\004\000\000\000\000\000\0002\006\000\000\000\000\000\000\362\002\000\000\000\000\000\000\276\003\000\000\000\000\000\000H\003\000\000\000\000\000\000D\005\000\000\000\000\000\000\035\004\000\000\000\000\000\000m\010\000\000\000\000\000\000\006\010\000\000\000\000\000\000/\005\000\000\000\000\000\000\020\005\000\000\000\000\000\000\271\006\000\000\000\000\000\000\222\006\000\000\000\000\000\000\276\004\000\000\000\000\000\000\247\007\000\000\000\000\000\000<\007\000\000\000\000\000\000\344\006\000\000\000\000\000\000`\003\000\000\000\000\000\000\306\006\000\000\000\000\000\000i\005\000\000\000\000\000\000\335\005\000\000\000\000\000\000\300\006\000\000\000\000\000\000\255\006\000\000\000\000\000\000k\003\000\000\000\000\000\000\363\007\000\000\000\000\000\0008\004\000\000\000\000\000\000@\005\000\000\000\000\000\000\311\003\000\000\000\000\000\000\256\006\000\000\000\000\000\000\311\007\000\000\000\000\000\000\344\004\000\000\000\000\000\000\260\004\000\000\000\000\000\000H\004\000\000\000\000\000\000\020\004\000\000\000\000\000\000\260\007\000\000\000\000\000\000\233\007\000\000\000\000\000\000\236\t\000\000\000\000\000\000\320\004\000\000\000\000\000\000l\n\000\000\000\000\000\000\005\006\000\000\000\000\000\000r\003\000\000\000\000\000\000P\006\000\000\000\000\000\000K\005\000\000\000\000\000\000K\007\000\000\000\000\000\000q\010\000\000\000\000\000\000\270\006\000\000\000\000\000\000\253\006\000\000\000\000\000\000f\005\000\000\000\000\000\000x\006\000\000\000\000\000\000\347\006\000\000\000\000\000\000R\005\000\000\000\000\000\000s\006\000\000\000\000\000\000n\010\000\000\000\000\000\000\014\010\000\000\000\000\000\000\200\007\000\000\000\000\000\000\272\010\000\000\000\000\000\000\310\003\000\000\000\000\000\000\365\005\000\000\000\000\000\000\n\007\000\000\000\000\000\000<\005\000\000\000\000\000\000\"\010\000\000\000\000\000\000\344\004\000\000\000\000\000\000\030\016\000\000\000\000\000\000\301\004\000\000\000\000\000\000x\006\000\000\000\000\000\000\310\004\000\000\000\000\000\0009\006\000\000\000\000\000\000\247\n\000\000\000\000\000\000\307\005\000\000\000\000\000\000\227\005\000\000\000\000\000\000\255\006\000\000\000\000\000\000`\003\000\000\000\000\000\000\260\005\000\000\000\000\000\000\276\006\000\000\000\000\000\000(\014\000\000\000\000\000\000\265\010\000\000\000\000\000\000\261\006\000\000\000\000\000\000a\004\000\000\000\000\000\000\377\004\000\000\000\000\000\000\036\005\000\000\000\000\000\000P\003\000\000\000\000\000\000\004\005\000\000\000\000\000\000\242\005\000\000\000\000\000\000\240\006\000\000\000\000\000\000L\004\000\000\000\000\000\000\016\010\000\000\000\000\000\000D\004\000\000\000\000\000\000`\003\000\000\000\000\000\000\274\004\000\000\000\000\000\000<\007\000\000\000\000\000\000\336\003\000\000\000\000\000\000p\005\000\000\000\000\000\000\324\004\000\000\000\000\000\000\234\005\000\000\000\000\000\0000\005\000\000\000\000\000\000\242\007\000\000\000\000\000\000\340\004\000\000\000\000\000\000\332\005\000\000\000\000\000\000\333\010\000\000\000\000\000\000\020\006\000\000\000\000\000\000`\003\000\000\000\000\000\000X\t\000\000\000\000\000\000\026\005\000\000\000\000\000\000\330\t\000\000\000\000\000\000\333\003\000\000\000\000\000\000\220\003\000\000\000\000\000\000\023\006\000\000\000\000\000\000\252\004\000\000\000\000\000\000\352\n\000\000\000\000\000\000\333\003\000\000\000\000\000\000~\003\000\000\000\000\000\000\250\007\000\000\000\000\000\000\333\003\000\000\000\000\000\000\206\005\000\000\000\000\000\000\320\006\000\000\000\000\000\000\236\006\000\000\000\000\000\000\317\005\000\000\000\000\000\000\036\006\000\000\000\000\000\000b\003\000\000\000\000\000\000\240\005\000\000\000\000\000\000\301\004\000\000\000\000\000\000>\010\000\000\000\000\000\000P\007\000\000\000\000\000\000\210\007\000\000\000\000\000\000_\005\000\000\000\000\000\000\204\006\000\000\000\000\000\000`\010\000\000\000\000\000\000\032\005\000\000\000\000\000\000Y\006\000\000\000\000\000\000h\006\000\000\000\000\000\000\026\005\000\000\000\000\000\000\"\005\000\000\000\000\000\000\363\010\000\000\000\000\000\000\300\006\000\000\000\000\000\000D\006\000\000\000\000\000\000\000\007\000\000\000\000\000\000r\003\000\000\000\000\000\000f\005\000\000\000\000\000\000\016\n\000\000\000\000\000\000\274\004\000\000\000\000\000\000$\005\000\000\000\000\000\000\374\002\000\000\000\000\000\000\216\005\000\000\000\000\000\000\347\005\000\000\000\000\000\000\220\010\000\000\000\000\000\000\n\003\000\000\000\000\000\000Y\004\000\000\000\000\000\000\223\007\000\000\000\000\000\000S\005\000\000\000\000\000\000\336\010\000\000\000\000\000\000`\006\000\000\000\000\000\0000\003\000\000\000\000\000\000\014\006\000\000\000\000\000\000\030\006\000\000\000\000\000\000`\003\000\000\000\000\000\000I\010\000\000\000\000\000\000\346\007\000\000\000\000\000\000\276\007\000\000\000\000\000\000\356\004\000\000\000\000\000\000\"\005\000\000\000\000\000\000\274\005\000\000\000\000\000\000\'\006\000\000\000\000\000\000\342\004\000\000\000\000\000\000\306\006\000\000\000\000\000\000Z\003\000\000\000\000\000\000\204\003\000\000\000\000\000\000t\005\000\000\000\000\000\000\177\007\000\000\000\000\000\000\264\006\000\000\000\000\000\000\264\006\000\000\000\000\000\000\327\010\000\000\000\000\000\000l\006\000\000\000\000\000\000\353\003\000\000\000\000\000\000\026\006\000\000\000\000\000\000\236\007\000\000\000\000\000\000\317\006\000\000\000\000\000\000\200\004\000\000\000\000\000\0008\005\000\000\000\000\000\000\224\t\000\000\000\000\000\000\005\006\000\000\000\000\000\000~\003\000\000\000\000\000\000\245\r\000\000\000\000\000\000\320\007\000\000\000\000\000\000\303\010\000\000\000\000\000\000~\005\000\000\000\000\000\000]\003\000\000\000\000\000\000\230\007\000\000\000\000\000\000\335\005\000\000\000\000\000\000\314\003\000\000\000\000\000\000^\004\000\000\000\000\000\000\364\007\000\000\000\000\000\000i\006\000\000\000\000\000\000\230\005\000\000\000\000\000\0001\t\000\000\000\000\000\000\247\007\000\000\000\000\000\000V\n\000\000\000\000\000\000\300\005\000\000\000\000\000\000$\n\000\000\000\000\000\000\244\t\000\000\000\000\000\000\252\n\000\000\000\000\000\000\213\004\000\000\000\000\000\000\242\013\000\000\000\000\000\000#\003\000\000\000\000\000\000\267\006\000\000\000\000\000\000g\005\000\000\000\000\000\000V\010\000\000\000\000\000\000\250\004\000\000\000\000\000\000\300\006\000\000\000\000\000\000 \004\000\000\000\000\000\000]\006\000\000\000\000\000\000N\005\000\000\000\000\000\000f\006\000\000\000\000\000\000\372\006\000\000\000\000\000\000\202\007\000\000\000\000\000\000\000\006\000\000\000\000\000\000U\006\000\000\000\000\000\000\277\004\000\000\000\000\000\000t\007\000\000\000\000\000\000I\003\000\000\000\000\000\000\020\004\000\000\000\000\000\000\224\006\000\000\000\000\000\000X\004\000\000\000\000\000\000)\006\000\000\000\000\000\000\276\003\000\000\000\000\000\000\306\005\000\000\000\000\000\000Z\006\000\000\000\000\000\000\250\n\000\000\000\000\000\000M\007\000\000\000\000\000\000\255\005\000\000\000\000\000\000W\004\000\000\000\000\000\000\320\002\000\000\000\000\000\000;\006\000\000\000\000\000\000\260\004\000\000\000\000\000\000\217\004\000\000\000\000\000\000v\004\000\000\000\000\000\000H\005\000\000\000\000\000\000\204\007\000\000\000\000\000\000\220\003\000\000\000\000\000\000\341\005\000\000\000\000\000\000\202\007\000\000\000\000\000\000\333\003\000\000\000\000\000\000&\006\000\000\000\000\000\000@\005\000\000\000\000\000\000r\005\000\000\000\000\000\000\227\005\000\000\000\000\000\000\364\004\000\000\000\000\000\000\007\005\000\000\000\000\000\000\200\006\000\000\000\000\000\0004\006\000\000\000\000\000\000\360\002\000\000\000\000\000\000\'\005\000\000\000\000\000\000\210\007\000\000\000\000\000\000\210\003\000\000\000\000\000\000\222\003\000\000\000\000\000\000\242\t\000\000\000\000\000\000@\007\000\000\000\000\000\000\010\007\000\000\000\000\000\000\233\006\000\000\000\000\000\000\025\005\000\000\000\000\000\000\005\007\000\000\000\000\000\000\020\003\000\000\000\000\000\000\241\007\000\000\000\000\000\000\365\004\000\000\000\000\000\000\240\004\000\000\000\000\000\000e\004\000\000\000\000\000\000\307\005\000\000\000\000\000\000\034\t\000\000\000\000\000\000W\005\000\000\000\000\000\000\251\007\000\000\000\000\000\000r\003\000\000\000\000\000\000\024\003\000\000\000\000\000\000\n\004\000\000\000\000\000\000x\004\000\000\000\000\000\000~\003\000\000\000\000\000\000\024\007\000\000\000\000\000\0005\004\000\000\000\000\000\000\016\006\000\000\000\000\000\000\010\005\000\000\000\000\000\000\036\005\000\000\000\000\000\000\240\002\000\000\000\000\000\000\327\010\000\000\000\000\000\000$\006\000\000\000\000\000\000T\006\000\000\000\000\000\000g\006\000\000\000\000\000\000\220\006\000\000\000\000\000\000|\010\000\000\000\000\000\000\036\010\000\000\000\000\000\000\374\004\000\000\000\000\000\000 \004\000\000\000\000\000\000\306\005\000\000\000\000\000\000\004\004\000\000\000\000\000\0001\010\000\000\000\000\000\000<\005\000\000\000\000\000\000x\005\000\000\000\000\000\000@\n\000\000\000\000\000\000n\004\000\000\000\000\000\000 \004\000\000\000\000\000\000@\005\000\000\000\000\000\000B\006\000\000\000\000\000\000\334\003\000\000\000\000\000\000F\n\000\000\000\000\000\000\254\004\000\000\000\000\000\000m\005\000\000\000\000\000\000l\006\000\000\000\000\000\000\213\003\000\000\000\000\000\000\270\004\000\000\000\000\000\000\204\005\000\000\000\000\000\000\333\003\000\000\000\000\000\000\256\004\000\000\000\000\000\000U\005\000\000\000\000\000\000D\006\000\000\000\000\000\000v\002\000\000\000\000\000\000}\006\000\000\000\000\000\000^\004\000\000\000\000\000\000\210\003\000\000\000\000\000\000\266\002\000\000\000\000\000\000\254\004\000\000\000\000\000\000b\t\000\000\000\000\000\000\240\005\000\000\000\000\000\000%\006\000\000\000\000\000\000\352\004\000\000\000\000\000\000t\007\000\000\000\000\000\000\231\006\000\000\000\000\000\000`\007\000\000\000\000\000\000^\007\000\000\000\000\000\000`\005\000\000\000\000\000\000\237\004\000\000\000\000\000\000-\003\000\000\000\000\000\000\375\005\000\000\000\000\000\000\334\006\000\000\000\000\000\0006\006\000\000\000\000\000\000\300\006\000\000\000\000\000\000\332\004\000\000\000\000\000\000@\005\000\000\000\000\000\000\177\006\000\000\000\000\000\000\202\006\000\000\000\000\000\000\263\004\000\000\000\000\000\000\217\007\000\000\000\000\000\000o\004\000\000\000\000\000\000`\003\000\000\000\000\000\000|\006\000\000\000\000\000\000\020\004\000\000\000\000\000\000\206\005\000\000\000\000\000\000\375\004\000\000\000\000\000\000l\006\000\000\000\000\000\000b\006\000\000\000\000\000\000\256\006\000\000\000\000\000\000\336\005\000\000\000\000\000\000\261\007\000\000\000\000\000\0000\004\000\000\000\000\000\000\270\007\000\000\000\000\000\000t\006\000\000\000\000\000\000\312\003\000\000\000\000\000\000\325\005\000\000\000\000\000\000S\n\000\000\000\000\000\000\266\006\000\000\000\000\000\000k\004\000\000\000\000\000\000:\007\000\000\000\000\000\000\000\007\000\000\000\000\000\000\"\007\000\000\000\000\000\000\300\004\000\000\000\000\000\000\347\003\000\000\000\000\000\000Y\004\000\000\000\000\000\0001\004\000\000\000\000\000\000\314\005\000\000\000\000\000\000n\t\000\000\000\000\000\000v\002\000\000\000\000\000\000\030\005\000\000\000\000\000\000*\006\000\000\000\000\000\000\260\005\000\000\000\000\000\000\365\004\000\000\000\000\000\000v\003\000\000\000\000\000\000\320\002\000\000\000\000\000\000\234\014\000\000\000\000\000\000\034\007\000\000\000\000\000\000\203\003\000\000\000\000\000\000\220\003\000\000\000\000\000\000\302\004\000\000\000\000\000\000\350\006\000\000\000\000\000\000\276\004\000\000\000\000\000\000\t\007\000\000\000\000\000\000*\005\000\000\000\000\000\000\250\007\000\000\000\000\000\000w\007\000\000\000\000\000\000\302\004\000\000\000\000\000\000b\005\000\000\000\000\000\000\021\004\000\000\000\000\000\000S\005\000\000\000\000\000\000X\005\000\000\000\000\000\000`\003\000\000\000\000\000\0008\004\000\000\000\000\000\000\025\003\000\000\000\000\000\000\344\007\000\000\000\000\000\000G\010\000\000\000\000\000\000(\t\000\000\000\000\000\000\004\007\000\000\000\000\000\000 \010\000\000\000\000\000\000\016\005\000\000\000\000\000\000\334\004\000\000\000\000\000\000\200\006\000\000\000\000\000\000D\022\000\000\000\000\000\000^\t\000\000\000\000\000\000\362\004\000\000\000\000\000\000\240\003\000\000\000\000\000\000\231\n\000\000\000\000\000\000]\002\000\000\000\000\000\000\323\t\000\000\000\000\000\000\345\005\000\000\000\000\000\000R\005\000\000\000\000\000\000;\003\000\000\000\000\000\000N\001\000\000\000\000\000\000\206\005\000\000\000\000\000\000C\005\000\000\000\000\000\000\274\006\000\000\000\000\000\000`\003\000\000\000\000\000\000\207\004\000\000\000\000\000\000A\006\000\000\000\000\000\000.\007\000\000\000\000\000\000\355\010\000\000\000\000\000\000\220\006\000\000\000\000\000\000\377\002\000\000\000\000\000\000\330\005\000\000\000\000\000\000\207\010\000\000\000\000\000\000c\006\000\000\000\000\000\000\000\003\000\000\000\000\000\0009\003\000\000\000\000\000\000.\010\000\000\000\000\000\000-\004\000\000\000\000\000\000\240\003\000\000\000\000\000\000\265\006\000\000\000\000\000\000f\004\000\000\000\000\000\000\376\007\000\000\000\000\000\000\030\004\000\000\000\000\000\000D\004\000\000\000\000\000\0008\005\000\000\000\000\000\000\246\005\000\000\000\000\000\000\025\006\000\000\000\000\000\000p\005\000\000\000\000\000\000m\005\000\000\000\000\000\000\344\003\000\000\000\000\000\000\212\006\000\000\000\000\000\000\367\010\000\000\000\000\000\000o\006\000\000\000\000\000\000\310\t\000\000\000\000\000\000\377\005\000\000\000\000\000\000T\010\000\000\000\000\000\000\257\003\000\000\000\000\000\000\300\006\000\000\000\000\000\000`\003\000\000\000\000\000\000\234\006\000\000\000\000\000\000\226\005\000\000\000\000\000\000U\004\000\000\000\000\000\000\300\004\000\000\000\000\000\000\305\005\000\000\000\000\000\000(\005\000\000\000\000\000\000p\005\000\000\000\000\000\000\003\007\000\000\000\000\000\000\225\005\000\000\000\000\000\000\372\007\000\000\000\000\000\0000\003\000\000\000\000\000\000\327\n\000\000\000\000\000\000%\006\000\000\000\000\000\000\354\007\000\000\000\000\000\000F\003\000\000\000\000\000\000\\\003\000\000\000\000\000\000\301\005\000\000\000\000\000\000\247\003\000\000\000\000\000\000.\006\000\000\000\000\000\000\370\010\000\000\000\000\000\0000\003\000\000\000\000\000\000P\003\000\000\000\000\000\000\234\003\000\000\000\000\000\000\"\007\000\000\000\000\000\000X\005\000\000\000\000\000\000z\005\000\000\000\000\000\000o\006\000\000\000\000\000\000\024\006\000\000\000\000\000\000p\007\000\000\000\000\000\000_\005\000\000\000\000\000\000{\007\000\000\000\000\000\000\260\004\000\000\000\000\000\000\326\005\000\000\000\000\000\000\302\007\000\000\000\000\000\000\020\004\000\000\000\000\000\000\330\007\000\000\000\000\000\000z\014\000\000\000\000\000\000\005\004\000\000\000\000\000\000i\010\000\000\000\000\000\000\010\004\000\000\000\000\000\000P\007\000\000\000\000\000\000`\004\000\000\000\000\000\000v\002\000\000\000\000\000\000\036\004\000\000\000\000\000\000\345\005\000\000\000\000\000\000@\003\000\000\000\000\000\000$\007\000\000\000\000\000\000\326\010\000\000\000\000\000\000`\003\000\000\000\000\000\0006\n\000\000\000\000\000\000\324\003\000\000\000\000\000\000\350\005\000\000\000\000\000\000\376\006\000\000\000\000\000\000\\\004\000\000\000\000\000\000\216\005\000\000\000\000\000\000\360\005\000\000\000\000\000\000 \010\000\000\000\000\000\000F\005\000\000\000\000\000\000\326\006\000\000\000\000\000\000\022\006\000\000\000\000\000\000\203\005\000\000\000\000\000\000 \004\000\000\000\000\000\000 \004\000\000\000\000\000\000C\r\000\000\000\000\000\000 \003\000\000\000\000\000\000k\005\000\000\000\000\000\000\034\003\000\000\000\000\000\000\037\006\000\000\000\000\000\000\356\005\000\000\000\000\000\000\211\007\000\000\000\000\000\000\220\n\000\000\000\000\000\000T\006\000\000\000\000\000\000\346\006\000\000\000\000\000\000\325\003\000\000\000\000\000\000\030\004\000\000\000\000\000\000F\004\000\000\000\000\000\000/\007\000\000\000\000\000\000v\002\000\000\000\000\000\000\201\006\000\000\000\000\000\000\346\005\000\000\000\000\000\000\264\006\000\000\000\000\000\000\275\005\000\000\000\000\000\000A\010\000\000\000\000\000\000D\004\000\000\000\000\000\000\035\004\000\000\000\000\000\000\336\005\000\000\000\000\000\000\262\005\000\000\000\000\000\000\316\005\000\000\000\000\000\000\217\007\000\000\000\000\000\000\220\t\000\000\000\000\000\000p\005\000\000\000\000\000\000\235\004\000\000\000\000\000\0001\010\000\000\000\000\000\000\220\007\000\000\000\000\000\000L\t\000\000\000\000\000\000\217\006\000\000\000\000\000\000\235\005\000\000\000\000\000\000\234\004\000\000\000\000\000\000\304\005\000\000\000\000\000\000Y\005\000\000\000\000\000\000\270\004\000\000\000\000\000\000/\007\000\000\000\000\000\000p\004\000\000\000\000\000\000\241\005\000\000\000\000\000\000\356\006\000\000\000\000\000\000\030\003\000\000\000\000\000\000\376\007\000\000\000\000\000\000\334\003\000\000\000\000\000\000\233\003\000\000\000\000\000\000\360\005\000\000\000\000\000\000\013\005\000\000\000\000\000\000\204\006\000\000\000\000\000\000/\007\000\000\000\000\000\000*\010\000\000\000\000\000\000\341\006\000\000\000\000\000\000N\004\000\000\000\000\000\000\213\005\000\000\000\000\000\000R\005\000\000\000\000\000\000P\003\000\000\000\000\000\000\334\020\000\000\000\000\000\000\327\t\000\000\000\000\000\0001\004\000\000\000\000\000\000\003\006\000\000\000\000\000\000q\004\000\000\000\000\000\000h\002\000\000\000\000\000\000|\004\000\000\000\000\000\000~\003\000\000\000\000\000\000o\005\000\000\000\000\000\000\010\007\000\000\000\000\000\000\214\004\000\000\000\000\000\000\020\n\000\000\000\000\000\000\024\007\000\000\000\000\000\000\314\005\000\000\000\000\000\000D\004\000\000\000\000\000\000 \007\000\000\000\000\000\000,\005\000\000\000\000\000\000\260\005\000\000\000\000\000\000\210\003\000\000\000\000\000\000\331\002\000\000\000\000\000\000\232\004\000\000\000\000\000\000\314\004\000\000\000\000\000\000\300\003\000\000\000\000\000\000\307\005\000\000\000\000\000\000F\005\000\000\000\000\000\000\372\t\000\000\000\000\000\000\232\004\000\000\000\000\000\000r\t\000\000\000\000\000\000\313\003\000\000\000\000\000\000\316\006\000\000\000\000\000\000P\003\000\000\000\000\000\000`\003\000\000\000\000\000\000\276\005\000\000\000\000\000\000\242\006\000\000\000\000\000\000`\003\000\000\000\000\000\000\220\006\000\000\000\000\000\000\320\004\000\000\000\000\000\000\360\006\000\000\000\000\000\000\270\004\000\000\000\000\000\000P\006\000\000\000\000\000\000z\004\000\000\000\000\000\000\357\007\000\000\000\000\000\000x\004\000\000\000\000\000\000\264\003\000\000\000\000\000\000\350\006\000\000\000\000\000\000\020\004\000\000\000\000\000\000\t\007\000\000\000\000\000\000\260\004\000\000\000\000\000\000\300\006\000\000\000\000\000\000\230\005\000\000\000\000\000\000\220\003\000\000\000\000\000\000E\005\000\000\000\000\000\000\270\005\000\000\000\000\000\0009\005\000\000\000\000\000\000\233\n\000\000\000\000\000\000\320\010\000\000\000\000\000\000P\n\000\000\000\000\000\000\270\006\000\000\000\000\000\000\371\005\000\000\000\000\000\000t\004\000\000\000\000\000\000(\005\000\000\000\000\000\000\326\005\000\000\000\000\000\0002\010\000\000\000\000\000\000\002\004\000\000\000\000\000\000\277\005\000\000\000\000\000\000\350\006\000\000\000\000\000\000j\005\000\000\000\000\000\000\335\005\000\000\000\000\000\000\343\t\000\000\000\000\000\000`\003\000\000\000\000\000\000\025\005\000\000\000\000\000\000\013\006\000\000\000\000\000\000=\t\000\000\000\000\000\000\326\005\000\000\000\000\000\000\342\005\000\000\000\000\000\000\262\006\000\000\000\000\000\000\326\006\000\000\000\000\000\000,\007\000\000\000\000\000\000\317\014\000\000\000\000\000\000Z\003\000\000\000\000\000\000\304\004\000\000\000\000\000\000]\004\000\000\000\000\000\000\220\003\000\000\000\000\000\000\265\007\000\000\000\000\000\000\264\004\000\000\000\000\000\000N\006\000\000\000\000\000\000~\003\000\000\000\000\000\000\344\007\000\000\000\000\000\000\354\003\000\000\000\000\000\000\345\004\000\000\000\000\000\000C\006\000\000\000\000\000\000\226\005\000\000\000\000\000\000V\004\000\000\000\000\000\000\314\005\000\000\000\000\000\000>\005\000\000\000\000\000\000t\006\000\000\000\000\000\000$\010\000\000\000\000\000\000\205\003\000\000\000\000\000\000\'\010\000\000\000\000\000\000y\004\000\000\000\000\000\000&\004\000\000\000\000\000\000\335\007\000\000\000\000\000\000\330\005\000\000\000\000\000\000g\007\000\000\000\000\000\000\034\006\000\000\000\000\000\000\005\005\000\000\000\000\000\000\005\003\000\000\000\000\000\000D\014\000\000\000\000\000\000\350\006\000\000\000\000\000\000\230\006\000\000\000\000\000\000\254\004\000\000\000\000\000\000\260\005\000\000\000\000\000\000\006\013\000\000\000\000\000\000h\004\000\000\000\000\000\000\224\005\000\000\000\000\000\000\324\003\000\000\000\000\000\000(\006\000\000\000\000\000\000>\004\000\000\000\000\000\000Z\010\000\000\000\000\000\000\035\005\000\000\000\000\000\000P\003\000\000\000\000\000\000\024\004\000\000\000\000\000\000\242\005\000\000\000\000\000\000\342\004\000\000\000\000\000\000}\006\000\000\000\000\000\000\360\003\000\000\000\000\000\000\231\006\000\000\000\000\000\000\034\004\000\000\000\000\000\000N\005\000\000\000\000\000\000h\006\000\000\000\000\000\000\250\003\000\000\000\000\000\000\305\006\000\000\000\000\000\000\321\005\000\000\000\000\000\000\321\005\000\000\000\000\000\000$\010\000\000\000\000\000\000\020\003\000\000\000\000\000\000\232\005\000\000\000\000\000\000N\010\000\000\000\000\000\000\307\004\000\000\000\000\000\000p\005\000\000\000\000\000\000\260\004\000\000\000\000\000\000%\007\000\000\000\000\000\000\354\005\000\000\000\000\000\000x\004\000\000\000\000\000\000+\004\000\000\000\000\000\000\027\006\000\000\000\000\000\000\333\003\000\000\000\000\000\000K\004\000\000\000\000\000\000\260\004\000\000\000\000\000\000\312\005\000\000\000\000\000\000\003\006\000\000\000\000\000\000\215\004\000\000\000\000\000\000\010\007\000\000\000\000\000\000\210\005\000\000\000\000\000\000\245\006\000\000\000\000\000\000\357\006\000\000\000\000\000\000`\003\000\000\000\000\000\0006\t\000\000\000\000\000\000?\007\000\000\000\000\000\000P\003\000\000\000\000\000\000\260\005\000\000\000\000\000\000n\006\000\000\000\000\000\000\245\005\000\000\000\000\000\000\363\006\000\000\000\000\000\000\020\004\000\000\000\000\000\000\002\004\000\000\000\000\000\000\311\005\000\000\000\000\000\000Z\005\000\000\000\000\000\000^\n\000\000\000\000\000\000\222\005\000\000\000\000\000\000\017\004\000\000\000\000\000\000I\004\000\000\000\000\000\000|\004\000\000\000\000\000\000\\\005\000\000\000\000\000\000\352\003\000\000\000\000\000\000n\006\000\000\000\000\000\000`\004\000\000\000\000\000\000\020\t\000\000\000\000\000\000\235\007\000\000\000\000\000\000~\003\000\000\000\000\000\000\222\006\000\000\000\000\000\000\216\003\000\000\000\000\000\000\364\004\000\000\000\000\000\000k\004\000\000\000\000\000\0002\n\000\000\000\000\000\000\020\004\000\000\000\000\000\000\260\010\000\000\000\000\000\000\203\004\000\000\000\000\000\000`\003\000\000\000\000\000\000B\004\000\000\000\000\000\000\265\006\000\000\000\000\000\0009\006\000\000\000\000\000\000\266\010\000\000\000\000\000\000|\003\000\000\000\000\000\000\255\006\000\000\000\000\000\000\260\006\000\000\000\000\000\000q\005\000\000\000\000\000\000\251\010\000\000\000\000\000\000\341\005\000\000\000\000\000\000\234\003\000\000\000\000\000\000\223\006\000\000\000\000\000\000,\004\000\000\000\000\000\000g\005\000\000\000\000\000\000\377\005\000\000\000\000\000\000\004\007\000\000\000\000\000\000\267\003\000\000\000\000\000\000\300\010\000\000\000\000\000\000<\t\000\000\000\000\000\000\324\004\000\000\000\000\000\000Z\003\000\000\000\000\000\000\032\005\000\000\000\000\000\000\345\005\000\000\000\000\000\000\206\006\000\000\000\000\000\000\206\003\000\000\000\000\000\000\'\004\000\000\000\000\000\000d\006\000\000\000\000\000\000\t\010\000\000\000\000\000\000\206\003\000\000\000\000\000\000\314\005\000\000\000\000\000\000\342\010\000\000\000\000\000\000\364\004\000\000\000\000\000\000\367\003\000\000\000\000\000\000\322\007\000\000\000\000\000\000\310\004\000\000\000\000\000\000D\004\000\000\000\000\000\000\340\001\000\000\000\000\000\000\315\004\000\000\000\000\000\000O\010\000\000\000\000\000\000\206\005\000\000\000\000\000\000\271\006\000\000\000\000\000\000\230\010\000\000\000\000\000\000$\005\000\000\000\000\000\000Q\006\000\000\000\000\000\000\226\006\000\000\000\000\000\000f\004\000\000\000\000\000\000F\t\000\000\000\000\000\000\272\007\000\000\000\000\000\000\374\006\000\000\000\000\000\000\274\010\000\000\000\000\000\000\272\005\000\000\000\000\000\000\235\003\000\000\000\000\000\000q\007\000\000\000\000\000\000\334\005\000\000\000\000\000\000\025\010\000\000\000\000\000\000\353\002\000\000\000\000\000\000\260\004\000\000\000\000\000\000\263\007\000\000\000\000\000\000\252\007\000\000\000\000\000\000c\t\000\000\000\000\000\000\300\006\000\000\000\000\000\000\014\010\000\000\000\000\000\000\240\005\000\000\000\000\000\000`\006\000\000\000\000\000\000@\005\000\000\000\000\000\000M\007\000\000\000\000\000\000x\004\000\000\000\000\000\000]\006\000\000\000\000\000\000\360\006\000\000\000\000\000\000e\005\000\000\000\000\000\000`\003\000\000\000\000\000\000\305\003\000\000\000\000\000\000\000\003\000\000\000\000\000\000\260\007\000\000\000\000\000\000\324\003\000\000\000\000\000\000\246\007\000\000\000\000\000\000\315\004\000\000\000\000\000\000!\004\000\000\000\000\000\0009\005\000\000\000\000\000\000\210\005\000\000\000\000\000\000Z\003\000\000\000\000\000\0008\013\000\000\000\000\000\000\014\006\000\000\000\000\000\000\010\007\000\000\000\000\000\000f\007\000\000\000\000\000\000\314\005\000\000\000\000\000\000\034\005\000\000\000\000\000\000J\004\000\000\000\000\000\000\310\003\000\000\000\000\000\000G\004\000\000\000\000\000\000\250\004\000\000\000\000\000\000Z\006\000\000\000\000\000\000\226\003\000\000\000\000\000\000\224\005\000\000\000\000\000\000\343\007\000\000\000\000\000\000f\005\000\000\000\000\000\000e\003\000\000\000\000\000\000\331\004\000\000\000\000\000\000~\003\000\000\000\000\000\000a\004\000\000\000\000\000\000\347\003\000\000\000\000\000\0004\n\000\000\000\000\000\000\362\004\000\000\000\000\000\000\362\010\000\000\000\000\000\000\306\006\000\000\000\000\000\000\214\004\000\000\000\000\000\000c\006\000\000\000\000\000\000\224\007\000\000\000\000\000\000\356\007\000\000\000\000\000\000(\006\000\000\000\000\000\000X\t\000\000\000\000\000\000\316\006\000\000\000\000\000\000;\007\000\000\000\000\000\000\334\005\000\000\000\000\000\000\266\006\000\000\000\000\000\000\316\004\000\000\000\000\000\000\032\004\000\000\000\000\000\000\242\005\000\000\000\000\000\0005\004\000\000\000\000\000\000\270\004\000\000\000\000\000\000\260\003\000\000\000\000\000\000\263\002\000\000\000\000\000\000&\006\000\000\000\000\000\000\220\006\000\000\000\000\000\000\340\005\000\000\000\000\000\000\331\003\000\000\000\000\000\000y\006\000\000\000\000\000\000D\004\000\000\000\000\000\000\256\006\000\000\000\000\000\000\362\005\000\000\000\000\000\000\367\004\000\000\000\000\000\000\200\006\000\000\000\000\000\000\336\005\000\000\000\000\000\000\376\003\000\000\000\000\000\000:\004\000\000\000\000\000\000\201\006\000\000\000\000\000\000\340\005\000\000\000\000\000\000P\005\000\000\000\000\000\000\300\005\000\000\000\000\000\000\342\005\000\000\000\000\000\000l\004\000\000\000\000\000\000\304\004\000\000\000\000\000\000\340\004\000\000\000\000\000\000\340\005\000\000\000\000\000\000R\013\000\000\000\000\000\000r\003\000\000\000\000\000\000\360\004\000\000\000\000\000\000n\006\000\000\000\000\000\000`\005\000\000\000\000\000\000\302\004\000\000\000\000\000\000\210\007\000\000\000\000\000\000\n\014\000\000\000\000\000\000\330\t\000\000\000\000\000\000v\006\000\000\000\000\000\000\272\003\000\000\000\000\000\000M\003\000\000\000\000\000\000T\006\000\000\000\000\000\000\327\010\000\000\000\000\000\000@\005\000\000\000\000\000\000v\002\000\000\000\000\000\000\013\007\000\000\000\000\000\000`\006\000\000\000\000\000\000\032\005\000\000\000\000\000\000\031\t\000\000\000\000\000\000\334\t\000\000\000\000\000\000\305\006\000\000\000\000\000\0004\013\000\000\000\000\000\000\336\003\000\000\000\000\000\000\353\006\000\000\000\000\000\000\242\003\000\000\000\000\000\000\026\005\000\000\000\000\000\000$\005\000\000\000\000\000\000\271\007\000\000\000\000\000\000\366\005\000\000\000\000\000\000\305\007\000\000\000\000\000\000\363\005\000\000\000\000\000\000T\005\000\000\000\000\000\000:\007\000\000\000\000\000\000\210\010\000\000\000\000\000\000\307\007\000\000\000\000\000\000:\005\000\000\000\000\000\000~\003\000\000\000\000\000\000!\t\000\000\000\000\000\000O\004\000\000\000\000\000\000\202\004\000\000\000\000\000\000\324\010\000\000\000\000\000\000#\006\000\000\000\000\000\000K\006\000\000\000\000\000\000\331\t\000\000\000\000\000\000}\003\000\000\000\000\000\000\030\004\000\000\000\000\000\000\024\006\000\000\000\000\000\000\260\005\000\000\000\000\000\000\222\005\000\000\000\000\000\000\330\004\000\000\000\000\000\000\314\006\000\000\000\000\000\000\272\005\000\000\000\000\000\000H\004\000\000\000\000\000\000P\003\000\000\000\000\000\000\336\003\000\000\000\000\000\000\352\004\000\000\000\000\000\000\020\004\000\000\000\000\000\000\263\005\000\000\000\000\000\000\343\004\000\000\000\000\000\000\332\005\000\000\000\000\000\000\344\003\000\000\000\000\000\000D\004\000\000\000\000\000\000\241\007\000\000\000\000\000\000\255\006\000\000\000\000\000\000\337\004\000\000\000\000\000\000\020\004\000\000\000\000\000\000\344\004\000\000\000\000\000\000\236\006\000\000\000\000\000\000\260\004\000\000\000\000\000\000\250\003\000\000\000\000\000\000\"\005\000\000\000\000\000\000K\005\000\000\000\000\000\000@\004\000\000\000\000\000\000,\005\000\000\000\000\000\000A\006\000\000\000\000\000\000\266\001\000\000\000\000\000\000\266\003\000\000\000\000\000\000n\004\000\000\000\000\000\000\252\004\000\000\000\000\000\000\026\005\000\000\000\000\000\000>\n\000\000\000\000\000\000\242\005\000\000\000\000\000\000\345\007\000\000\000\000\000\000\232\006\000\000\000\000\000\000,\007\000\000\000\000\000\000z\006\000\000\000\000\000\000\254\007\000\000\000\000\000\0000\003\000\000\000\000\000\000\360\003\000\000\000\000\000\000A\003\000\000\000\000\000\000\306\006\000\000\000\000\000\000\213\005\000\000\000\000\000\000~\003\000\000\000\000\000\000A\006\000\000\000\000\000\000\020\004\000\000\000\000\000\000\364\003\000\000\000\000\000\000\020\006\000\000\000\000\000\000\300\003\000\000\000\000\000\000\272\002\000\000\000\000\000\000\312\005\000\000\000\000\000\000\355\003\000\000\000\000\000\000\023\006\000\000\000\000\000\000\372\005\000\000\000\000\000\000\247\007\000\000\000\000\000\000\250\003\000\000\000\000\000\000\275\007\000\000\000\000\000\000\316\003\000\000\000\000\000\000\242\010\000\000\000\000\000\000\344\007\000\000\000\000\000\000@\006\000\000\000\000\000\000\332\003\000\000\000\000\000\000\344\004\000\000\000\000\000\000\374\003\000\000\000\000\000\000\037\006\000\000\000\000\000\000\217\004\000\000\000\000\000\000\270\003\000\000\000\000\000\000L\007\000\000\000\000\000\000\014\013\000\000\000\000\000\000\356\003\000\000\000\000\000\000\234\003\000\000\000\000\000\000(\006\000\000\000\000\000\000\022\005\000\000\000\000\000\000\034\006\000\000\000\000\000\000W\004\000\000\000\000\000\000\312\005\000\000\000\000\000\000\244\003\000\000\000\000\000\000\272\005\000\000\000\000\000\000\023\007\000\000\000\000\000\0000\003\000\000\000\000\000\000\034\007\000\000\000\000\000\000\235\005\000\000\000\000\000\000\361\004\000\000\000\000\000\000\"\005\000\000\000\000\000\000,\006\000\000\000\000\000\000T\007\000\000\000\000\000\000\260\005\000\000\000\000\000\000h\006\000\000\000\000\000\000~\003\000\000\000\000\000\000\352\004\000\000\000\000\000\000\230\005\000\000\000\000\000\000\336\005\000\000\000\000\000\000\236\006\000\000\000\000\000\000\207\006\000\000\000\000\000\000<\010\000\000\000\000\000\000+\016\000\000\000\000\000\000^\004\000\000\000\000\000\000\355\004\000\000\000\000\000\000\342\004\000\000\000\000\000\000\016\014\000\000\000\000\000\000)\t\000\000\000\000\000\0008\013\000\000\000\000\000\000\233\003\000\000\000\000\000\000\310\004\000\000\000\000\000\000?\005\000\000\000\000\000\000d\004\000\000\000\000\000\000\322\t\000\000\000\000\000\000t\006\000\000\000\000\000\000|\021\000\000\000\000\000\000j\004\000\000\000\000\000\000$\006\000\000\000\000\000\000\305\004\000\000\000\000\000\000\243\006\000\000\000\000\000\000X\006\000\000\000\000\000\000|\006\000\000\000\000\000\000\014\007\000\000\000\000\000\000V\006\000\000\000\000\000\000\241\005\000\000\000\000\000\000\300\005\000\000\000\000\000\000\310\004\000\000\000\000\000\000H\005\000\000\000\000\000\000\260\005\000\000\000\000\000\000G\007\000\000\000\000\000\000\232\006\000\000\000\000\000\000\274\004\000\000\000\000\000\000f\005\000\000\000\000\000\000"
      }
    }
  }
}
node {
  name: "tensors/component_2"
  op: "Const"
  device: "/device:CPU:0"
  attr {
    key: "_output_shapes"
    value {
      list {
        shape {
          dim {
            size: 1200
          }
        }
      }
    }
  }
  attr {
    key: "dtype"
    value {
      type: DT_INT64
    }
  }
  attr {
    key: "value"
    value {
      tensor {
        dtype: DT_INT64
        tensor_shape {
          dim {
            size: 1200
          }
        }
